unsigned char sine_model_quantized_tflite[] = {
  0x1c, 0x00, 0x00, 0x00, 0x54, 0x46, 0x4c, 0x33, 0x14, 0x00, 0x20, 0x00,
  0x1c, 0x00, 0x18, 0x00, 0x14, 0x00, 0x10, 0x00, 0x0c, 0x00, 0x00, 0x00,
  0x08, 0x00, 0x04, 0x00, 0x14, 0x00, 0x00, 0x00, 0x1c, 0x00, 0x00, 0x00,
  0x94, 0x00, 0x00, 0x00, 0xec, 0x00, 0x00, 0x00, 0x08, 0x07, 0x00, 0x00,
  0x18, 0x07, 0x00, 0x00, 0x28, 0x0c, 0x00, 0x00, 0x03, 0x00, 0x00, 0x00,
  0x01, 0x00, 0x00, 0x00, 0x10, 0x00, 0x00, 0x00, 0x00, 0x00, 0x0a, 0x00,
  0x10, 0x00, 0x0c, 0x00, 0x08, 0x00, 0x04, 0x00, 0x0a, 0x00, 0x00, 0x00,
  0x0c, 0x00, 0x00, 0x00, 0x1c, 0x00, 0x00, 0x00, 0x38, 0x00, 0x00, 0x00,
  0x0f, 0x00, 0x00, 0x00, 0x73, 0x65, 0x72, 0x76, 0x69, 0x6e, 0x67, 0x5f,
  0x64, 0x65, 0x66, 0x61, 0x75, 0x6c, 0x74, 0x00, 0x01, 0x00, 0x00, 0x00,
  0x04, 0x00, 0x00, 0x00, 0x94, 0xff, 0xff, 0xff, 0x09, 0x00, 0x00, 0x00,
  0x04, 0x00, 0x00, 0x00, 0x07, 0x00, 0x00, 0x00, 0x64, 0x65, 0x6e, 0x73,
  0x65, 0x5f, 0x34, 0x00, 0x01, 0x00, 0x00, 0x00, 0x04, 0x00, 0x00, 0x00,
  0x86, 0xf9, 0xff, 0xff, 0x04, 0x00, 0x00, 0x00, 0x0d, 0x00, 0x00, 0x00,
  0x64, 0x65, 0x6e, 0x73, 0x65, 0x5f, 0x32, 0x5f, 0x69, 0x6e, 0x70, 0x75,
  0x74, 0x00, 0x00, 0x00, 0x02, 0x00, 0x00, 0x00, 0x34, 0x00, 0x00, 0x00,
  0x04, 0x00, 0x00, 0x00, 0xdc, 0xff, 0xff, 0xff, 0x0c, 0x00, 0x00, 0x00,
  0x04, 0x00, 0x00, 0x00, 0x13, 0x00, 0x00, 0x00, 0x43, 0x4f, 0x4e, 0x56,
  0x45, 0x52, 0x53, 0x49, 0x4f, 0x4e, 0x5f, 0x4d, 0x45, 0x54, 0x41, 0x44,
  0x41, 0x54, 0x41, 0x00, 0x08, 0x00, 0x0c, 0x00, 0x08, 0x00, 0x04, 0x00,
  0x08, 0x00, 0x00, 0x00, 0x0b, 0x00, 0x00, 0x00, 0x04, 0x00, 0x00, 0x00,
  0x13, 0x00, 0x00, 0x00, 0x6d, 0x69, 0x6e, 0x5f, 0x72, 0x75, 0x6e, 0x74,
  0x69, 0x6d, 0x65, 0x5f, 0x76, 0x65, 0x72, 0x73, 0x69, 0x6f, 0x6e, 0x00,
  0x0d, 0x00, 0x00, 0x00, 0x18, 0x06, 0x00, 0x00, 0x10, 0x06, 0x00, 0x00,
  0xfc, 0x05, 0x00, 0x00, 0xa4, 0x05, 0x00, 0x00, 0x54, 0x05, 0x00, 0x00,
  0x04, 0x05, 0x00, 0x00, 0xf4, 0x00, 0x00, 0x00, 0xa4, 0x00, 0x00, 0x00,
  0x9c, 0x00, 0x00, 0x00, 0x94, 0x00, 0x00, 0x00, 0x8c, 0x00, 0x00, 0x00,
  0x6c, 0x00, 0x00, 0x00, 0x04, 0x00, 0x00, 0x00, 0x36, 0xfa, 0xff, 0xff,
  0x04, 0x00, 0x00, 0x00, 0x58, 0x00, 0x00, 0x00, 0x0c, 0x00, 0x00, 0x00,
  0x08, 0x00, 0x0e, 0x00, 0x08, 0x00, 0x04, 0x00, 0x08, 0x00, 0x00, 0x00,
  0x10, 0x00, 0x00, 0x00, 0x28, 0x00, 0x00, 0x00, 0x00, 0x00, 0x06, 0x00,
  0x08, 0x00, 0x04, 0x00, 0x06, 0x00, 0x00, 0x00, 0x04, 0x00, 0x00, 0x00,
  0x01, 0x00, 0x00, 0x00, 0xea, 0x03, 0x00, 0x00, 0x00, 0x00, 0x0a, 0x00,
  0x10, 0x00, 0x0c, 0x00, 0x08, 0x00, 0x04, 0x00, 0x0a, 0x00, 0x00, 0x00,
  0x02, 0x00, 0x00, 0x00, 0x02, 0x00, 0x00, 0x00, 0x04, 0x00, 0x00, 0x00,
  0x06, 0x00, 0x00, 0x00, 0x32, 0x2e, 0x31, 0x30, 0x2e, 0x30, 0x00, 0x00,
  0x9a, 0xfa, 0xff, 0xff, 0x04, 0x00, 0x00, 0x00, 0x10, 0x00, 0x00, 0x00,
  0x31, 0x2e, 0x35, 0x2e, 0x30, 0x00, 0x00, 0x00, 0x00, 0x00, 0x00, 0x00,
  0x00, 0x00, 0x00, 0x00, 0xa8, 0xf5, 0xff, 0xff, 0xac, 0xf5, 0xff, 0xff,
  0xb0, 0xf5, 0xff, 0xff, 0xc2, 0xfa, 0xff, 0xff, 0x04, 0x00, 0x00, 0x00,
  0x40, 0x00, 0x00, 0x00, 0xdc, 0xbe, 0xff, 0x3e, 0x23, 0xdc, 0x6b, 0xbf,
  0xb4, 0x3e, 0x6c, 0xbf, 0x82, 0xcf, 0x2e, 0xbf, 0x80, 0xb3, 0xa1, 0x3e,
  0x0a, 0x56, 0x3e, 0xbf, 0x16, 0x24, 0x51, 0xbf, 0xca, 0xbe, 0x94, 0x3e,
  0x0d, 0x56, 0x54, 0xbf, 0x30, 0xb4, 0xc4, 0x3d, 0x38, 0xf6, 0x9b, 0x3f,
  0xb3, 0xe9, 0xb4, 0xbe, 0x14, 0x83, 0xc9, 0xbd, 0x6a, 0x58, 0x29, 0xbf,
  0xbf, 0xf9, 0x05, 0x3f, 0x19, 0xca, 0x02, 0xbf, 0x0e, 0xfb, 0xff, 0xff,
  0x04, 0x00, 0x00, 0x00, 0x00, 0x04, 0x00, 0x00, 0xa6, 0x66, 0x7f, 0x3e,
  0x65, 0x09, 0xda, 0xbe, 0xa2, 0x74, 0x6c, 0x3e, 0x58, 0xea, 0x04, 0xbd,
  0x86, 0xe4, 0x3a, 0x3e, 0xf8, 0xe5, 0xe6, 0xbd, 0xe0, 0x9d, 0x6f, 0xbc,
  0x6b, 0xf7, 0xae, 0x3e, 0x70, 0xc4, 0x31, 0xbd, 0x70, 0xa4, 0x78, 0x3d,
  0xb1, 0x74, 0xb7, 0xbe, 0xec, 0x99, 0xc6, 0x3d, 0x8c, 0x6e, 0x65, 0xbe,
  0x28, 0xb8, 0x22, 0xbd, 0x7a, 0x28, 0x0d, 0x3e, 0x82, 0x00, 0x20, 0x3e,
  0xed, 0x59, 0x86, 0xbe, 0x15, 0xdc, 0x43, 0x3f, 0x8f, 0x75, 0x78, 0xbe,
  0xd4, 0xf4, 0xe4, 0x3d, 0xc9, 0x27, 0xa2, 0x3e, 0xc5, 0x0a, 0x82, 0xbf,
  0xca, 0x2e, 0x6d, 0x3e, 0xda, 0xa4, 0x46, 0x3f, 0xe4, 0xe9, 0x4c, 0xbe,
  0x57, 0xb3, 0xbb, 0x3e, 0xf9, 0x6c, 0x9d, 0xbe, 0x0b, 0xed, 0xdb, 0x3e,
  0x06, 0x9c, 0xa6, 0xbe, 0x16, 0xe7, 0x27, 0x3e, 0x6b, 0xfb, 0xb8, 0x3e,
  0xef, 0xf7, 0x9e, 0xbe, 0x39, 0x3f, 0xec, 0xbd, 0x3c, 0x1b, 0x8f, 0xbe,
  0xf6, 0x4d, 0x8d, 0xbe, 0x99, 0xa3, 0x91, 0x3e, 0x39, 0xff, 0xc6, 0x3e,
  0x5a, 0x8d, 0xcd, 0x3d, 0x00, 0x78, 0x46, 0xbe, 0xf9, 0xb3, 0x85, 0x3d,
  0xb1, 0x48, 0x74, 0xbe, 0xb3, 0x13, 0xaa, 0x3e, 0xee, 0x59, 0x65, 0x3e,
  0x51, 0x14, 0xc3, 0x3e, 0x9c, 0xdd, 0x94, 0xbe, 0x9c, 0x46, 0xb7, 0xbd,
  0xf8, 0x99, 0x6a, 0xbe, 0x00, 0xf8, 0xe5, 0xbf, 0xd2, 0xf2, 0xc0, 0x3e,
  0xc2, 0x7c, 0x03, 0xbf, 0x99, 0x4e, 0xb9, 0x3e, 0x60, 0xd2, 0xa8, 0xbc,
  0xba, 0x22, 0x98, 0x3d, 0x04, 0x73, 0xbb, 0xbd, 0xef, 0xa6, 0x5f, 0x3e,
  0xd7, 0xcc, 0xc1, 0xbe, 0x8d, 0x39, 0xc6, 0x3e, 0xa0, 0xc6, 0x5a, 0x3d,
  0x3a, 0x3d, 0x1e, 0x3e, 0xfa, 0x55, 0x0d, 0x3e, 0x2e, 0x3a, 0x72, 0x3e,
  0xf6, 0x52, 0x3c, 0x3e, 0x70, 0x05, 0x0c, 0x3d, 0x4e, 0xb7, 0xeb, 0xbf,
  0x00, 0x00, 0x87, 0x37, 0x0c, 0xa0, 0xa2, 0x3d, 0xf8, 0x7f, 0x2e, 0xbd,
  0xc9, 0xc0, 0xb0, 0x3e, 0x51, 0x75, 0xaf, 0xbe, 0x6a, 0x40, 0x96, 0xbd,
  0x9c, 0xad, 0x37, 0x3e, 0x1c, 0xaa, 0xa9, 0x3d, 0xd2, 0x74, 0x01, 0x3e,
  0x09, 0x67, 0x9a, 0x3e, 0xc8, 0xef, 0xb1, 0xbe, 0xaa, 0x3f, 0x42, 0xbe,
  0x73, 0xd0, 0x7a, 0xbe, 0x30, 0x27, 0x5b, 0xbd, 0x30, 0xd7, 0x4e, 0x3d,
  0x91, 0x73, 0xae, 0x3d, 0xfc, 0x44, 0x14, 0x3e, 0x47, 0xfd, 0xb4, 0xbe,
  0x6b, 0x3a, 0xd7, 0xbe, 0x35, 0x6e, 0xce, 0xbe, 0x2d, 0x4c, 0x8d, 0xbe,
  0xaf, 0x17, 0x49, 0x3e, 0x79, 0x2e, 0x08, 0x3e, 0x27, 0x10, 0xa2, 0x3e,
  0x77, 0x61, 0x54, 0x3d, 0x99, 0x3e, 0xb6, 0x3e, 0x65, 0xee, 0x11, 0xbd,
  0x20, 0x92, 0x9b, 0xbd, 0x34, 0x23, 0xa5, 0x3d, 0xa3, 0x14, 0x8c, 0x3e,
  0xd0, 0x69, 0x93, 0xbe, 0x0c, 0x94, 0xbe, 0xbf, 0xf2, 0xd1, 0x87, 0xbe,
  0x24, 0x9d, 0x31, 0x3e, 0x45, 0x3a, 0xd3, 0x3e, 0x80, 0xfd, 0xe4, 0xbc,
  0x1b, 0x52, 0xaa, 0x3e, 0xaa, 0x4a, 0x02, 0xbe, 0xc1, 0x3d, 0x9d, 0xbc,
  0xd8, 0x84, 0x9a, 0xbd, 0x8a, 0x5c, 0xaf, 0xbe, 0x59, 0xa6, 0xa6, 0x3e,
  0x2a, 0x9b, 0x0b, 0xbf, 0xe7, 0x40, 0x8a, 0x3e, 0x40, 0x6d, 0xb4, 0xbc,
  0x40, 0xcd, 0x3c, 0x3c, 0xcf, 0xa5, 0xb9, 0x3e, 0x74, 0x50, 0xba, 0xbd,
  0x7c, 0x77, 0x04, 0x3e, 0x2b, 0x51, 0xf8, 0x3c, 0x01, 0x54, 0xd7, 0xbe,
  0x04, 0x31, 0xa6, 0xbd, 0xac, 0x6c, 0xbb, 0x3d, 0xb6, 0x22, 0xab, 0x3b,
  0x53, 0x42, 0xab, 0x3e, 0x07, 0xc1, 0xc2, 0xbd, 0xb3, 0xcc, 0x14, 0x3e,
  0xc8, 0x6f, 0x82, 0x3d, 0x43, 0x6f, 0x0e, 0xbe, 0x8c, 0x11, 0xaa, 0xbe,
  0xfa, 0x86, 0x96, 0xbe, 0xa3, 0xf8, 0x6a, 0xbe, 0xf0, 0x48, 0xa0, 0x3c,
  0xb6, 0xa9, 0xb5, 0x3f, 0xfa, 0x5c, 0xcf, 0x3e, 0xb0, 0x53, 0xff, 0xbd,
  0x3c, 0xea, 0x92, 0x3d, 0x6e, 0xf1, 0x0d, 0x3e, 0x9e, 0x9c, 0x6f, 0xbd,
  0x64, 0x7d, 0xb5, 0x3e, 0x45, 0xc4, 0x2a, 0x3e, 0x3b, 0x44, 0xd8, 0x3d,
  0xe2, 0xf1, 0x5e, 0x3d, 0xf8, 0x70, 0xd6, 0xbd, 0x8a, 0x9e, 0x81, 0xbe,
  0x80, 0xd6, 0x82, 0xbd, 0x6e, 0x80, 0x91, 0xbe, 0xf6, 0xc9, 0x1b, 0xbe,
  0x5f, 0x80, 0xd6, 0x3e, 0xe1, 0xf7, 0xf4, 0xbf, 0x10, 0x6d, 0x34, 0xbd,
  0xde, 0xb3, 0x5b, 0x3e, 0xe9, 0xf5, 0xbd, 0xbe, 0x10, 0x95, 0x66, 0xbd,
  0xeb, 0xee, 0x86, 0x3e, 0x29, 0x91, 0x83, 0xbe, 0xf6, 0x1b, 0x90, 0x3e,
  0x46, 0x0c, 0x44, 0x3e, 0xc3, 0x52, 0xff, 0xbe, 0x42, 0x31, 0x77, 0x3e,
  0x23, 0x24, 0x78, 0x3d, 0x7a, 0x77, 0x7f, 0xbe, 0x0d, 0xd6, 0xc4, 0x3e,
  0x60, 0xcf, 0xc5, 0xbe, 0x5e, 0x1f, 0x6b, 0x3e, 0x1a, 0xd7, 0xf3, 0x3f,
  0x4a, 0x48, 0xb3, 0xbe, 0xc8, 0xaa, 0x87, 0xbe, 0x69, 0x6c, 0x68, 0xbe,
  0x12, 0xd3, 0x19, 0x3e, 0x49, 0x07, 0x5e, 0xbe, 0x0b, 0xd2, 0xba, 0x3e,
  0xe9, 0x01, 0xd0, 0x3e, 0x5f, 0x28, 0xcf, 0x3e, 0x94, 0x76, 0x21, 0x3d,
  0x98, 0xeb, 0x3c, 0xbe, 0x94, 0x25, 0x63, 0xbe, 0xb5, 0x46, 0xd2, 0x3e,
  0x8f, 0x88, 0xd7, 0x3e, 0xad, 0x6a, 0xdd, 0xbe, 0xb7, 0x23, 0xdd, 0x3e,
  0x50, 0x9c, 0x50, 0xc0, 0x8b, 0x86, 0x4b, 0xbe, 0x3d, 0x78, 0x8d, 0xbd,
  0x88, 0xa2, 0x84, 0xbd, 0x86, 0xfe, 0x07, 0x3e, 0xae, 0xd7, 0xea, 0x3e,
  0xe1, 0x96, 0x9a, 0x3e, 0xb5, 0xc5, 0xcc, 0xbe, 0x40, 0x66, 0xb6, 0x3e,
  0x2b, 0x55, 0x1d, 0x3e, 0x8d, 0x96, 0x84, 0x3e, 0x56, 0x42, 0x3c, 0x3e,
  0x02, 0x89, 0x4f, 0x3e, 0xb8, 0x3d, 0xe5, 0xbd, 0xb6, 0xf2, 0xac, 0xbe,
  0x5f, 0x74, 0x93, 0x3e, 0x17, 0xb1, 0xed, 0xbf, 0x38, 0x67, 0x99, 0xbe,
  0xc0, 0x08, 0x9b, 0xbe, 0x2a, 0x35, 0x73, 0x3e, 0x80, 0x5f, 0xbf, 0xbc,
  0x70, 0x0a, 0x07, 0x3d, 0xca, 0x56, 0x1a, 0x3e, 0x59, 0x8d, 0xb2, 0xbe,
  0x8a, 0x0d, 0x64, 0x3e, 0x42, 0x40, 0x49, 0xbe, 0x34, 0x4d, 0x9c, 0x3d,
  0x10, 0x5b, 0x9a, 0xbe, 0x60, 0x49, 0x03, 0x3d, 0x6c, 0x73, 0xc2, 0xbe,
  0xe0, 0xae, 0x24, 0x3d, 0xd8, 0x5c, 0x08, 0x3d, 0x0c, 0x83, 0x29, 0xbe,
  0x3c, 0xdd, 0xbd, 0xbd, 0xd8, 0x0c, 0xb8, 0xbd, 0x90, 0xdd, 0x5f, 0xbd,
  0x3a, 0x21, 0xa4, 0xbe, 0x81, 0xd7, 0x9e, 0x3e, 0x08, 0xce, 0xe1, 0xbd,
  0x4f, 0xcb, 0x3f, 0xbd, 0xaa, 0x28, 0xb9, 0xbe, 0xbb, 0xd1, 0x27, 0x3e,
  0x43, 0x0a, 0xc6, 0x3e, 0x4e, 0x54, 0xdb, 0x3e, 0x66, 0x37, 0x09, 0xbe,
  0xd8, 0xf3, 0x4d, 0xbe, 0x76, 0xa1, 0x67, 0x3e, 0xb3, 0x7a, 0xa0, 0x3e,
  0x82, 0x6d, 0xc9, 0xbf, 0x7f, 0xdc, 0x93, 0xbe, 0x7a, 0x5f, 0xd2, 0x3e,
  0x25, 0x77, 0x9e, 0x3e, 0xed, 0x3a, 0x4c, 0xbe, 0x2d, 0x3f, 0xa4, 0xbe,
  0x10, 0x64, 0x49, 0x3e, 0x6a, 0xec, 0xcf, 0x3d, 0xa1, 0x3d, 0xc5, 0xbe,
  0x6f, 0x42, 0x4b, 0xbd, 0xc0, 0x50, 0x15, 0x3d, 0x62, 0x62, 0x80, 0x3e,
  0xd2, 0xa6, 0x36, 0xbe, 0x30, 0xdb, 0x4d, 0xbe, 0xf8, 0x95, 0x4c, 0xbd,
  0x60, 0x76, 0xcc, 0xbc, 0x77, 0x52, 0xd6, 0x3f, 0xc5, 0x31, 0xf0, 0x3e,
  0x7f, 0x0f, 0x05, 0xbf, 0xac, 0x4b, 0xf0, 0xbd, 0x69, 0x1b, 0xcc, 0xbe,
  0x4f, 0x03, 0xc7, 0x3d, 0x93, 0xab, 0x93, 0x3c, 0x50, 0x45, 0x1e, 0x3e,
  0xb2, 0x8f, 0x70, 0x3e, 0x49, 0x76, 0xdb, 0x3e, 0xd6, 0xb1, 0x1c, 0x3e,
  0xae, 0x3d, 0x18, 0xbe, 0xdb, 0x53, 0xb5, 0x3e, 0x84, 0x45, 0xc8, 0xbd,
  0x81, 0xfb, 0xcd, 0x3e, 0xe4, 0x4e, 0x4d, 0xbe, 0x2f, 0x47, 0xed, 0xbf,
  0x1a, 0xff, 0xff, 0xff, 0x04, 0x00, 0x00, 0x00, 0x40, 0x00, 0x00, 0x00,
  0x07, 0x3f, 0xbc, 0x3e, 0x19, 0x01, 0x60, 0xbd, 0x1a, 0x6f, 0x8c, 0xbe,
  0xfe, 0x36, 0xd7, 0xbe, 0x63, 0x32, 0x9c, 0x3e, 0xe9, 0x51, 0xc8, 0x3e,
  0xf9, 0xeb, 0x4d, 0x3e, 0x1c, 0x01, 0x02, 0x3e, 0xb9, 0x62, 0xbe, 0x3d,
  0xf0, 0xa2, 0x33, 0xbd, 0x05, 0xa5, 0xb5, 0x3e, 0xd8, 0x23, 0x98, 0xbd,
  0xaa, 0x72, 0xcb, 0xbe, 0x5c, 0x4c, 0x0b, 0xbf, 0xac, 0x42, 0x0a, 0xbf,
  0x5f, 0x42, 0x27, 0x3e, 0x66, 0xff, 0xff, 0xff, 0x04, 0x00, 0x00, 0x00,
  0x40, 0x00, 0x00, 0x00, 0x44, 0xec, 0x79, 0xbe, 0x23, 0xf1, 0x84, 0x3e,
  0x00, 0x00, 0x00, 0x00, 0x00, 0x00, 0x00, 0x00, 0xc0, 0xf8, 0x9d, 0xbe,
  0x3e, 0x9a, 0x10, 0x3c, 0x89, 0xf7, 0x49, 0x3e, 0x62, 0x56, 0x0c, 0xbe,
  0x67, 0x36, 0x5b, 0xbe, 0x00, 0x00, 0x00, 0x00, 0x10, 0x30, 0x00, 0xbd,
  0x00, 0x00, 0x00, 0x00, 0x00, 0x00, 0x00, 0x00, 0x00, 0x00, 0x00, 0x00,
  0x00, 0x00, 0x00, 0x00, 0x4a, 0x23, 0x34, 0xbf, 0xb2, 0xff, 0xff, 0xff,
  0x04, 0x00, 0x00, 0x00, 0x40, 0x00, 0x00, 0x00, 0x00, 0x00, 0x00, 0x00,
  0x54, 0xac, 0xe6, 0x3e, 0x6b, 0x8e, 0x42, 0xbe, 0xa5, 0xf3, 0x85, 0xbe,
  0x01, 0x0d, 0x76, 0xbd, 0x08, 0x83, 0x3b, 0xbe, 0xd4, 0xbc, 0x90, 0x3d,
  0xed, 0x32, 0x1d, 0x3e, 0x6f, 0x8e, 0x9a, 0xbe, 0x9c, 0x6e, 0xf1, 0x3d,
  0x73, 0xd6, 0x8a, 0x3e, 0x86, 0x66, 0x90, 0xbe, 0x00, 0x00, 0x00, 0x00,
  0xb1, 0x63, 0x57, 0xbe, 0xfe, 0x8d, 0x29, 0x3e, 0x09, 0x1a, 0x07, 0xbe,
  0x00, 0x00, 0x06, 0x00, 0x08, 0x00, 0x04, 0x00, 0x06, 0x00, 0x00, 0x00,
  0x04, 0x00, 0x00, 0x00, 0x04, 0x00, 0x00, 0x00, 0xe2, 0xcd, 0x36, 0x3e,
  0x08, 0xfb, 0xff, 0xff, 0x0c, 0xfb, 0xff, 0xff, 0x0f, 0x00, 0x00, 0x00,
  0x4d, 0x4c, 0x49, 0x52, 0x20, 0x43, 0x6f, 0x6e, 0x76, 0x65, 0x72, 0x74,
  0x65, 0x64, 0x2e, 0x00, 0x01, 0x00, 0x00, 0x00, 0x14, 0x00, 0x00, 0x00,
  0x00, 0x00, 0x0e, 0x00, 0x18, 0x00, 0x14, 0x00, 0x10, 0x00, 0x0c, 0x00,
  0x08, 0x00, 0x04, 0x00, 0x0e, 0x00, 0x00, 0x00, 0x14, 0x00, 0x00, 0x00,
  0x1c, 0x00, 0x00, 0x00, 0xd8, 0x00, 0x00, 0x00, 0xdc, 0x00, 0x00, 0x00,
  0xe0, 0x00, 0x00, 0x00, 0x04, 0x00, 0x00, 0x00, 0x6d, 0x61, 0x69, 0x6e,
  0x00, 0x00, 0x00, 0x00, 0x03, 0x00, 0x00, 0x00, 0x80, 0x00, 0x00, 0x00,
  0x38, 0x00, 0x00, 0x00, 0x04, 0x00, 0x00, 0x00, 0x9a, 0xff, 0xff, 0xff,
  0x10, 0x00, 0x00, 0x00, 0x00, 0x00, 0x00, 0x08, 0x0c, 0x00, 0x00, 0x00,
  0x10, 0x00, 0x00, 0x00, 0x84, 0xfb, 0xff, 0xff, 0x01, 0x00, 0x00, 0x00,
  0x09, 0x00, 0x00, 0x00, 0x03, 0x00, 0x00, 0x00, 0x08, 0x00, 0x00, 0x00,
  0x06, 0x00, 0x00, 0x00, 0x01, 0x00, 0x00, 0x00, 0xca, 0xff, 0xff, 0xff,
  0x10, 0x00, 0x00, 0x00, 0x00, 0x00, 0x00, 0x08, 0x10, 0x00, 0x00, 0x00,
  0x14, 0x00, 0x00, 0x00, 0xba, 0xff, 0xff, 0xff, 0x00, 0x00, 0x00, 0x01,
  0x01, 0x00, 0x00, 0x00, 0x08, 0x00, 0x00, 0x00, 0x03, 0x00, 0x00, 0x00,
  0x07, 0x00, 0x00, 0x00, 0x05, 0x00, 0x00, 0x00, 0x02, 0x00, 0x00, 0x00,
  0x00, 0x00, 0x0e, 0x00, 0x16, 0x00, 0x00, 0x00, 0x10, 0x00, 0x0c, 0x00,
  0x0b, 0x00, 0x04, 0x00, 0x0e, 0x00, 0x00, 0x00, 0x18, 0x00, 0x00, 0x00,
  0x00, 0x00, 0x00, 0x08, 0x18, 0x00, 0x00, 0x00, 0x1c, 0x00, 0x00, 0x00,
  0x00, 0x00, 0x06, 0x00, 0x08, 0x00, 0x07, 0x00, 0x06, 0x00, 0x00, 0x00,
  0x00, 0x00, 0x00, 0x01, 0x01, 0x00, 0x00, 0x00, 0x07, 0x00, 0x00, 0x00,
  0x03, 0x00, 0x00, 0x00, 0x00, 0x00, 0x00, 0x00, 0x04, 0x00, 0x00, 0x00,
  0x03, 0x00, 0x00, 0x00, 0x01, 0x00, 0x00, 0x00, 0x09, 0x00, 0x00, 0x00,
  0x01, 0x00, 0x00, 0x00, 0x00, 0x00, 0x00, 0x00, 0x0a, 0x00, 0x00, 0x00,
  0xa4, 0x03, 0x00, 0x00, 0x34, 0x03, 0x00, 0x00, 0xc4, 0x02, 0x00, 0x00,
  0x6c, 0x02, 0x00, 0x00, 0x20, 0x02, 0x00, 0x00, 0xd4, 0x01, 0x00, 0x00,
  0x88, 0x01, 0x00, 0x00, 0xf4, 0x00, 0x00, 0x00, 0x60, 0x00, 0x00, 0x00,
  0x04, 0x00, 0x00, 0x00, 0x9a, 0xfc, 0xff, 0xff, 0x00, 0x00, 0x00, 0x01,
  0x14, 0x00, 0x00, 0x00, 0x1c, 0x00, 0x00, 0x00, 0x1c, 0x00, 0x00, 0x00,
  0x0a, 0x00, 0x00, 0x00, 0x34, 0x00, 0x00, 0x00, 0x02, 0x00, 0x00, 0x00,
  0xff, 0xff, 0xff, 0xff, 0x01, 0x00, 0x00, 0x00, 0x84, 0xfc, 0xff, 0xff,
  0x19, 0x00, 0x00, 0x00, 0x53, 0x74, 0x61, 0x74, 0x65, 0x66, 0x75, 0x6c,
  0x50, 0x61, 0x72, 0x74, 0x69, 0x74, 0x69, 0x6f, 0x6e, 0x65, 0x64, 0x43,
  0x61, 0x6c, 0x6c, 0x3a, 0x30, 0x00, 0x00, 0x00, 0x02, 0x00, 0x00, 0x00,
  0x01, 0x00, 0x00, 0x00, 0x01, 0x00, 0x00, 0x00, 0xf2, 0xfc, 0xff, 0xff,
  0x00, 0x00, 0x00, 0x01, 0x14, 0x00, 0x00, 0x00, 0x1c, 0x00, 0x00, 0x00,
  0x1c, 0x00, 0x00, 0x00, 0x09, 0x00, 0x00, 0x00, 0x6c, 0x00, 0x00, 0x00,
  0x02, 0x00, 0x00, 0x00, 0xff, 0xff, 0xff, 0xff, 0x10, 0x00, 0x00, 0x00,
  0xdc, 0xfc, 0xff, 0xff, 0x52, 0x00, 0x00, 0x00, 0x73, 0x65, 0x71, 0x75,
  0x65, 0x6e, 0x74, 0x69, 0x61, 0x6c, 0x5f, 0x31, 0x2f, 0x64, 0x65, 0x6e,
  0x73, 0x65, 0x5f, 0x33, 0x2f, 0x4d, 0x61, 0x74, 0x4d, 0x75, 0x6c, 0x3b,
  0x73, 0x65, 0x71, 0x75, 0x65, 0x6e, 0x74, 0x69, 0x61, 0x6c, 0x5f, 0x31,
  0x2f, 0x64, 0x65, 0x6e, 0x73, 0x65, 0x5f, 0x33, 0x2f, 0x52, 0x65, 0x6c,
  0x75, 0x3b, 0x73, 0x65, 0x71, 0x75, 0x65, 0x6e, 0x74, 0x69, 0x61, 0x6c,
  0x5f, 0x31, 0x2f, 0x64, 0x65, 0x6e, 0x73, 0x65, 0x5f, 0x33, 0x2f, 0x42,
  0x69, 0x61, 0x73, 0x41, 0x64, 0x64, 0x00, 0x00, 0x02, 0x00, 0x00, 0x00,
  0x01, 0x00, 0x00, 0x00, 0x10, 0x00, 0x00, 0x00, 0x82, 0xfd, 0xff, 0xff,
  0x00, 0x00, 0x00, 0x01, 0x14, 0x00, 0x00, 0x00, 0x1c, 0x00, 0x00, 0x00,
  0x1c, 0x00, 0x00, 0x00, 0x08, 0x00, 0x00, 0x00, 0x6c, 0x00, 0x00, 0x00,
  0x02, 0x00, 0x00, 0x00, 0xff, 0xff, 0xff, 0xff, 0x10, 0x00, 0x00, 0x00,
  0x6c, 0xfd, 0xff, 0xff, 0x52, 0x00, 0x00, 0x00, 0x73, 0x65, 0x71, 0x75,
  0x65, 0x6e, 0x74, 0x69, 0x61, 0x6c, 0x5f, 0x31, 0x2f, 0x64, 0x65, 0x6e,
  0x73, 0x65, 0x5f, 0x32, 0x2f, 0x4d, 0x61, 0x74, 0x4d, 0x75, 0x6c, 0x3b,
  0x73, 0x65, 0x71, 0x75, 0x65, 0x6e, 0x74, 0x69, 0x61, 0x6c, 0x5f, 0x31,
  0x2f, 0x64, 0x65, 0x6e, 0x73, 0x65, 0x5f, 0x32, 0x2f, 0x52, 0x65, 0x6c,
  0x75, 0x3b, 0x73, 0x65, 0x71, 0x75, 0x65, 0x6e, 0x74, 0x69, 0x61, 0x6c,
  0x5f, 0x31, 0x2f, 0x64, 0x65, 0x6e, 0x73, 0x65, 0x5f, 0x32, 0x2f, 0x42,
  0x69, 0x61, 0x73, 0x41, 0x64, 0x64, 0x00, 0x00, 0x02, 0x00, 0x00, 0x00,
  0x01, 0x00, 0x00, 0x00, 0x10, 0x00, 0x00, 0x00, 0x7e, 0xfe, 0xff, 0xff,
  0x00, 0x00, 0x00, 0x01, 0x10, 0x00, 0x00, 0x00, 0x10, 0x00, 0x00, 0x00,
  0x07, 0x00, 0x00, 0x00, 0x28, 0x00, 0x00, 0x00, 0xec, 0xfd, 0xff, 0xff,
  0x1b, 0x00, 0x00, 0x00, 0x73, 0x65, 0x71, 0x75, 0x65, 0x6e, 0x74, 0x69,
  0x61, 0x6c, 0x5f, 0x31, 0x2f, 0x64, 0x65, 0x6e, 0x73, 0x65, 0x5f, 0x34,
  0x2f, 0x4d, 0x61, 0x74, 0x4d, 0x75, 0x6c, 0x00, 0x02, 0x00, 0x00, 0x00,
  0x01, 0x00, 0x00, 0x00, 0x10, 0x00, 0x00, 0x00, 0xc6, 0xfe, 0xff, 0xff,
  0x00, 0x00, 0x00, 0x01, 0x10, 0x00, 0x00, 0x00, 0x10, 0x00, 0x00, 0x00,
  0x06, 0x00, 0x00, 0x00, 0x28, 0x00, 0x00, 0x00, 0x34, 0xfe, 0xff, 0xff,
  0x1b, 0x00, 0x00, 0x00, 0x73, 0x65, 0x71, 0x75, 0x65, 0x6e, 0x74, 0x69,
  0x61, 0x6c, 0x5f, 0x31, 0x2f, 0x64, 0x65, 0x6e, 0x73, 0x65, 0x5f, 0x33,
  0x2f, 0x4d, 0x61, 0x74, 0x4d, 0x75, 0x6c, 0x00, 0x02, 0x00, 0x00, 0x00,
  0x10, 0x00, 0x00, 0x00, 0x10, 0x00, 0x00, 0x00, 0x0e, 0xff, 0xff, 0xff,
  0x00, 0x00, 0x00, 0x01, 0x10, 0x00, 0x00, 0x00, 0x10, 0x00, 0x00, 0x00,
  0x05, 0x00, 0x00, 0x00, 0x28, 0x00, 0x00, 0x00, 0x7c, 0xfe, 0xff, 0xff,
  0x1b, 0x00, 0x00, 0x00, 0x73, 0x65, 0x71, 0x75, 0x65, 0x6e, 0x74, 0x69,
  0x61, 0x6c, 0x5f, 0x31, 0x2f, 0x64, 0x65, 0x6e, 0x73, 0x65, 0x5f, 0x32,
  0x2f, 0x4d, 0x61, 0x74, 0x4d, 0x75, 0x6c, 0x00, 0x02, 0x00, 0x00, 0x00,
  0x10, 0x00, 0x00, 0x00, 0x01, 0x00, 0x00, 0x00, 0x56, 0xff, 0xff, 0xff,
  0x00, 0x00, 0x00, 0x01, 0x10, 0x00, 0x00, 0x00, 0x10, 0x00, 0x00, 0x00,
  0x04, 0x00, 0x00, 0x00, 0x38, 0x00, 0x00, 0x00, 0xc4, 0xfe, 0xff, 0xff,
  0x2b, 0x00, 0x00, 0x00, 0x73, 0x65, 0x71, 0x75, 0x65, 0x6e, 0x74, 0x69,
  0x61, 0x6c, 0x5f, 0x31, 0x2f, 0x64, 0x65, 0x6e, 0x73, 0x65, 0x5f, 0x32,
  0x2f, 0x42, 0x69, 0x61, 0x73, 0x41, 0x64, 0x64, 0x2f, 0x52, 0x65, 0x61,
  0x64, 0x56, 0x61, 0x72, 0x69, 0x61, 0x62, 0x6c, 0x65, 0x4f, 0x70, 0x00,
  0x01, 0x00, 0x00, 0x00, 0x10, 0x00, 0x00, 0x00, 0xaa, 0xff, 0xff, 0xff,
  0x00, 0x00, 0x00, 0x01, 0x10, 0x00, 0x00, 0x00, 0x10, 0x00, 0x00, 0x00,
  0x03, 0x00, 0x00, 0x00, 0x38, 0x00, 0x00, 0x00, 0x18, 0xff, 0xff, 0xff,
  0x2b, 0x00, 0x00, 0x00, 0x73, 0x65, 0x71, 0x75, 0x65, 0x6e, 0x74, 0x69,
  0x61, 0x6c, 0x5f, 0x31, 0x2f, 0x64, 0x65, 0x6e, 0x73, 0x65, 0x5f, 0x33,
  0x2f, 0x42, 0x69, 0x61, 0x73, 0x41, 0x64, 0x64, 0x2f, 0x52, 0x65, 0x61,
  0x64, 0x56, 0x61, 0x72, 0x69, 0x61, 0x62, 0x6c, 0x65, 0x4f, 0x70, 0x00,
  0x01, 0x00, 0x00, 0x00, 0x10, 0x00, 0x00, 0x00, 0x00, 0x00, 0x16, 0x00,
  0x18, 0x00, 0x14, 0x00, 0x00, 0x00, 0x10, 0x00, 0x0c, 0x00, 0x08, 0x00,
  0x00, 0x00, 0x00, 0x00, 0x00, 0x00, 0x07, 0x00, 0x16, 0x00, 0x00, 0x00,
  0x00, 0x00, 0x00, 0x01, 0x10, 0x00, 0x00, 0x00, 0x10, 0x00, 0x00, 0x00,
  0x02, 0x00, 0x00, 0x00, 0x38, 0x00, 0x00, 0x00, 0x84, 0xff, 0xff, 0xff,
  0x2b, 0x00, 0x00, 0x00, 0x73, 0x65, 0x71, 0x75, 0x65, 0x6e, 0x74, 0x69,
  0x61, 0x6c, 0x5f, 0x31, 0x2f, 0x64, 0x65, 0x6e, 0x73, 0x65, 0x5f, 0x34,
  0x2f, 0x42, 0x69, 0x61, 0x73, 0x41, 0x64, 0x64, 0x2f, 0x52, 0x65, 0x61,
  0x64, 0x56, 0x61, 0x72, 0x69, 0x61, 0x62, 0x6c, 0x65, 0x4f, 0x70, 0x00,
  0x01, 0x00, 0x00, 0x00, 0x01, 0x00, 0x00, 0x00, 0x00, 0x00, 0x16, 0x00,
  0x1c, 0x00, 0x18, 0x00, 0x00, 0x00, 0x14, 0x00, 0x10, 0x00, 0x0c, 0x00,
  0x00, 0x00, 0x00, 0x00, 0x08, 0x00, 0x07, 0x00, 0x16, 0x00, 0x00, 0x00,
  0x00, 0x00, 0x00, 0x01, 0x14, 0x00, 0x00, 0x00, 0x20, 0x00, 0x00, 0x00,
  0x20, 0x00, 0x00, 0x00, 0x01, 0x00, 0x00, 0x00, 0x3c, 0x00, 0x00, 0x00,
  0x02, 0x00, 0x00, 0x00, 0xff, 0xff, 0xff, 0xff, 0x01, 0x00, 0x00, 0x00,
  0x04, 0x00, 0x04, 0x00, 0x04, 0x00, 0x00, 0x00, 0x1f, 0x00, 0x00, 0x00,
  0x73, 0x65, 0x72, 0x76, 0x69, 0x6e, 0x67, 0x5f, 0x64, 0x65, 0x66, 0x61,
  0x75, 0x6c, 0x74, 0x5f, 0x64, 0x65, 0x6e, 0x73, 0x65, 0x5f, 0x32, 0x5f,
  0x69, 0x6e, 0x70, 0x75, 0x74, 0x3a, 0x30, 0x00, 0x02, 0x00, 0x00, 0x00,
  0x01, 0x00, 0x00, 0x00, 0x01, 0x00, 0x00, 0x00, 0x01, 0x00, 0x00, 0x00,
  0x10, 0x00, 0x00, 0x00, 0x0c, 0x00, 0x0c, 0x00, 0x0b, 0x00, 0x00, 0x00,
  0x00, 0x00, 0x04, 0x00, 0x0c, 0x00, 0x00, 0x00, 0x09, 0x00, 0x00, 0x00,
  0x00, 0x00, 0x00, 0x09
};
unsigned int sine_model_quantized_tflite_len = 3196;
